1110101000
1101000110
0001010001
0100000111
0101100001
1110001100
1011000001
1011010000
0100001101
1011010001
1100001101
0110100111
0011110011
0110100111
1010001100
0111101000
1010010010
1000101100
1100011101
0111010010
0110101010
1010010110
0100101110
1000101100
1101010100
0110010001
0111000110
1001011000
1100011110
0101110100
0100100101
0111101000
0101100010
0000010001
0001110001
0011010100
0011101010
1001011100
0110100011
1101010100
0111000010
1010001110
0111110000
0011101101
0011010110
0001000100
1011010001
0011010010
1111001000
1010011110
0011100110
0101010010
1011010100
0010101100
0001111110
1011010101
0010010110
1011001001
0101100101
1010100100
0011001001
1101100100
1010101000
1011101000
1010111010
1000011111
1000110111
0011001111
1001000101
0001111101
1011000101
1100110001
1001011101
1010000010
1101000101
0100111011
0010110111
1000001111
0011101010
1001110101
1110001110
0011100110
1000111010
1000111100
1010011001
0111100001
0101010101
1011110100
0000011100
0001000101
1011000100
1001001111
1010101001
0010100101
0001001111
1001101011
1111100101
1011100100
1010100100
0111110100
0110000111
1010000100
0011001100
1110100011
0100110101
0001010011
0011000101
1111000001
1011011011
1000101011
0111110010
1111000101
0101110001
1010101011
0011011000
1110111001
0100001111
0000010010
0011010001
1010011010
1010101011
1111010100
0110011100
0101011010
1100110101
1011011000
1101001101
0101100100
0110010110
1110101100
1011000110
0000100110
0010100000
0101010010
1001011010
0010101010
0001111011
0101011000
1010000111
1110011100
1000101011
0110110111
1011010110
1001100110
0001101011
1000100111
0101101001
0001100011
1110101100
0000110011
0001111011
0011100100
0011001011
1001010110
1110110010
0101100011
0110101000
0001110011
1110001010
0100101100
0101010000
0111001110
0011010101
1110010110
0011001110
0100011101
1100011001
1010001101
0110001100
0110110011
1001010111
0101100100
0101100110
0001000011
0101100011
0001111011
0010101100
1010000100
0000111011
0110011000
0001110010
1100011011
0110101011
0000111010
0010111100
0101100111
0010100110
1100111011
0011000110
1110001001
0110001110
1010110011
1110100001
0010110010
0010010010
1011001001
0111101011
0111100110
0111100010
1001011000
0000110001
1111000100
0100101110
0111000010
0110101011
1100000001
0111101100
0010010110
1110110010
0010110010
1001010111
0110101110
0010101010
0001011010
1001000111
0110010001
1001101100
0110000010
0010110010
0000001111
0110101110
1100011100
1011100001
0010110100
0010101000
0010100110
0101010101
1110000100
1010110010
0010001010
1001011111
0111011110
1110010001
0101111001
0000110011
0001001011
0010110101
1111100000
1100100101
0100011011
0010111010
1010011010
1110100011
1001100101
0101101100
0010101101
1001111011
0010100101
0011110000
0000111001
0000110110
0010111111
1100111011
1100001101
1000100111
1010011100
0100110010
0101100111
1011111100
0001110101
1000101100
0011010111
0101101010
0000110010
0100011011
1100011001
1100101011
1000101110
1001001111
1001101000
1111000111
1000100111
1100011011
0110110001
0001100111
0111110011
1000011011
0101100100
0011010010
0110111001
0110100101
1110100101
0011101110
0110011000
1000100100
0100010101
0011011101
1110011101
0010010010
1011000011
1111010001
0101011001
1010011000
0100101011
1011011010
1010101101
0111100101
1101000011
1100100100
1010101110
0000000000
1010010110
1011010101
0001111100
1100001011
0101111110
0011101000
0010000111
0101111100
0011100001
1001100110
0011100011
1011000111
1011001110
0111100100
0101001011
1111111100
0000100110
0110001000
0000101011
0101001111
0001110100
0001111100
0111000111
1010011011
0010011110
1111000000
0100100110
0101011110
1000100110
1110101000
0111010010
1101010111
1010001111
1011100011
0000011000
0101100110
1010101100
0101110111
1000011100
0101111000
1100101001
1011001011
1100101000
0110001100
0010100111
1100101010
1111000000
1010011111
0011001011
0100110110
1100101010
0100101011
1111000000
0001101100
1001000011
0100010100
0001101101
1110011010
1010110010
0011010011
0000110101
1110110100
0110100011
1001110111
1110001110
0101110101
1001000010
1010101001
0011000101
0101110100
0000000011
0111100100
1011110010
1010011100
0111000011
0110100110
1101110101
0001110011
1110010001
1011000000
0010101110
1001011010
0001100101
1101011111
1111100100
0001000101
1010110010
1001111111
1101000011
0001111001
0110100000
1000011010
0100011011
0101010010
1010010011
1111010010
1111010000
0011101010
0001011100
0010100000
1111011101
0010010010
0001011001
1011101101
0101010101
0110000110
1000111010
1101110011
1111000101
0111101111
1101100101
1100011001
1011000011
0110110001
0101100111
0010101010
1010000101
1110000010
0111001110
0001101110
1010011000
0001000011
1100011001
0101011010
0100000011
0111100001
1011000011
1001011101
1010001101
1011001011
0111001011
0001000110
1001010011
0110101100
1001110001
0001010011
1010101000
1100111010
0111011000
0000101001
0101111000
1001011101
0010110111
1110100101
1000101001
0000100110
1101011100
1101001011
0000011110
0000000111
1100011010
0001010111
0110110101
0000011011
1100001011
1000101011
0100100101
0101100100
1111100011
0100111001
1100110100
1000101110
0100011011
1010110100
0101000010
1001000110
1000010101
0111001001
1111000101
0110011100
0111100011
1110101100
1011011101
1110100110
1110001111
1000111110
0101100010
0111100100
0011110001
0001001110
1010001110
0100001011
0011110001
0111001100
1000111010
0111111000
0010110110
1010011101
0111110000
0100111010
1100010100
1111000101
1101000101
0100100111
0101011100
1011101000
1001010100
0110000011
1001011101
1000011001
1000011011
0011101100
1010110111
1010101001
0110011100
1100000101
0010111100
0111011010
0101011000
0100001011
1011101001
0000111000
0001110011
0001100010
0011110110
1100111011
1110100010
0110111100
0001100011
1110000011
0111010100
0001110011
1010001110
1001100110
1100000111
0111010101
1110100100
0001111101
0101110001
1100001100
1101101001
1000011110
1001110001
1000011010
0110000000
1000010011
1000010111
1000011100
0011110100
0010010011
0011000101
0001110000
0001000101
1100101101
0100101000
0000011011
0111000101
0110100100
0111010010
0001001001
1100111010
1000101111
1100100000
1101011010
0110011101
1101001101
1010101011
1101101010
1001010111
0011111000
0101000110
1100000011
1101101000
0010011111
0001000111
1111001001
0000011011
0110100010
0111110000
1001100101
0100111110
1000110001
1000011010
1100100000
0111101000
0111010101
0110100111
1000110010
0110110010
1011100100
1100000101
1010100011
0000101011
1100110001
1000101111
1111100001
1000101111
0111000101
0111101010
1001001111
0001101011
0000101010
1101010101
1000101011
0000111100
0101111000
1010100011
1001001010
1111001010
1001011100
1110000111
1010111010
0000011011
1001110110
0101010110
0010011111
1111000000
