1101010110
0011000000
0001110111
0010110111
1001100110
0110101100
1010111010
1110100001
1111100100
0000111110
1100101100
1100111000
1111000110
0001110101
1010000100
1101100110
1000110011
0100001011
1000010101
1010011010
0111100100
1010000110
0001110110
1111110010
0111001001
1111000110
0011010010
0011111001
1000101100
0100111011
1100101011
1101011011
0111000101
1000101010
1000001011
0100000110
1110010100
1110101001
0100110101
0001011001
1111000101
0010010011
1101010001
0000110111
1011010011
0100101000
1101101100
0000111111
1100011010
1111000000
1010110101
1001111000
1110010001
0111000101
1011100001
0110011000
1001110110
1000101111
1010011010
1111000101
0001110011
1110110010
1010100111
0100101010
1101101000
0100101100
1110001010
1110011000
1001011100
0110011100
1101110001
1010010101
0100001110
1110100010
1111011000
0000011011
0111011001
1011000101
1010101101
0110000110
1100001001
1010001100
0110100110
0001100100
0101101101
0110101010
0110010101
0110101010
0001001101
0011100001
1100101100
1101010101
1001001010
1011110001
1101101101
0001111001
1000011011
0111000100
0001001011
0100011111
0100111010
1110000011
1010101100
1101100100
1001100011
0010101110
0110011001
1110000100
1000011101
0110011001
0001111011
0110101000
0010000111
0101010000
0101101110
1110101001
1110000111
1100001101
0110100001
0100011001
0000111010
1000001100
0111100100
0111011001
0000101011
1111001101
0000011010
0011001010
0101110110
1010001110
0010101011
0100001111
0011011011
0111000101
1100100100
0111111100
1001001100
1101101010
0011011010
1110100100
0110000010
1101011100
1000111001
1010111000
1011010011
0001011110
1001011101
1111010011
1010010110
1000010001
0101100100
0110100101
0111001101
1001101110
0000110011
0011001110
0101111101
1000101110
1000100011
0111101000
1010111010
0110011001
0000111010
1111000001
1001000111
0010101111
0111001110
1001100101
1001001100
0011010100
1110010100
1010111100
1110011000
0101100101
0001110101
0110001111
0100100101
0010100111
1011100101
1101000001
0011100101
0101111010
1010100011
0110000011
1000111111
0101000111
1001101000
0010010011
0001110110
0000110101
0111101010
1100101101
0110001100
1011101100
0111000011
0001011000
0001110110
1111011011
1000010110
0000111110
1000101101
1001010100
1110101001
1000111110
1110100011
1101100100
0001110111
1110101011
1001000111
0011101100
0100100110
1110110010
0101111111
1010000011
0101010011
0111000101
0001011011
0101011010
0001111000
1011011000
1110100000
1011001000
1000100011
1110000010
1110001100
0110010100
0100001111
1011001110
1111000100
1011100101
0111001101
0010110111
1111100001
1101001110
1010110101
1110101010
1101000000
0100000111
0101011010
0001010110
0111100011
0110001000
0010101100
0111011010
1111011000
0111100000
0101100001
1101011100
0011100100
1110010011
1010101110
1010110011
0101101110
0110010101
1010001110
1111101101
1001100001
0111000100
1110011010
0001110011
0010110100
0110111101
0000110010
0111011000
0001110011
0101110000
1010100000
1111000100
1110000110
0011010001
1010001011
1011000001
0111101100
0110100111
0011001101
1101100000
1000111011
0110010101
0011110100
0101110011
1011000101
0010111100
0000011010
1100101110
1011110011
1001011100
1010011010
0001101111
0101100011
1110011001
1000000011
1010111010
0111010010
1100101011
0101001011
0100100001
1111001010
0011111000
0000111000
1010101100
1101011010
0001100100
1010011010
0111111001
0010100101
0011000110
0010101110
0101110100
0001011011
1100101011
0001010111
1110001001
1110001111
0101010100
1000101001
1001101011
1011110001
1000111010
1001111010
1001100100
1010011011
0101111001
0011010100
1001010100
0011101010
1010110010
1111000111
0001111100
0111011000
0100110111
0000000011
0011001010
1000111100
1011110000
1101011001
0101010110
1000100110
1101111010
1011101011
1100011101
0000010011
1010111001
0001000111
0101001010
0111101100
1001101101
0001001011
0001111001
0101000111
1000011111
1101110110
0011011001
1101001001
0001110111
0100111010
1101111001
1010001110
1100010101
1101000001
1100110100
1110001011
1101010111
0110101111
0010111010
1000101001
0110101011
1001011100
1010001110
0001010011
0001001010
0010011110
0111010110
0000101011
0100111110
1011010001
1101100001
0001110000
0111001100
0101011010
1010001100
1010101010
1110111010
0010110011
1010001010
1011001111
1100011010
1111010000
0101000110
0101101000
0111011000
0111101110
1011100100
1110101000
1010011010
0000111101
0001001111
1110100001
0000111010
0100100011
0101111001
0101010010
1011010001
0111111000
1110101110
0110110001
0110001100
1111100000
0011100010
0011100011
1011110100
0110110011
1100000101
0000110001
0110110010
0111100010
1110110001
0010111111
1010010010
1100100010
1001001010
1101001001
0011010011
1001001110
0111001100
1010100110
1010100011
0011110101
1111111011
0011110011
0111100010
0111011110
1101001011
0100010101
0010100101
0111110010
0101111100
1101011001
1010110001
1011011010
0111000100
1000100101
0110001110
0000010110
0010100011
0101101000
0010111100
0011001101
0101110101
0011010010
0110000001
0100011011
1000110011
0110001000
1001001101
0001010111
1101110001
1100011001
1010100011
0101000110
1111110100
1100010110
1101010101
1011000100
0101010010
1111001010
1000001101
0010101110
0101000110
1001001011
1111001101
0011100110
1101011111
0100000111
1011111000
0011000110
1111001111
1100001101
1001001111
0101101001
1111101000
0000111001
0000011110
1000010011
0000101011
0100111011
0111001000
1010010101
1000001001
1001011000
1111110010
0010011101
0010101001
0011100111
1110100000
1000100011
1000111100
0101010001
1100101011
0111000011
0001110101
0000111100
0001011101
1001011010
0111100100
1110100110
0111001000
0110110100
1101101000
0100010111
1011011101
1100010100
0111010011
1011110110
1010010110
1101111010
1000100001
1011010100
1101001101
1111000001
1010001101
0010011000
1011010110
1000100110
0111110100
0110000011
0110011000
1010001001
0101010110
1110111010
1101111100
0111100010
0111100111
1000011110
0000101111
0110100010
0110010010
1111100110
0010100010
1000111010
1001011101
1011001100
1111001000
0011010110
0101010010
1110001100
0010000011
1101010110
1000101111
1000101001
0100101100
1110001000
1111011100
0001101011
0101010001
1000011010
1101100010
0111010001
1100111100
1101011001
0111101001
1001101101
1011001111
0010011100
0100110100
1101000010
0110100111
1100110100
1101111000
0100011010
1011100111
1010110101
0011100100
1111000100
0111110100
1010100110
0110010001
1100000111
1110001100
1000011011
0011100111
0010000001
0111110100
1110111110
1000100001
0101011100
0100100100
0000101101
0110101011
1001000101
0100110011
1110101010
0010010011
1001000101
0100011011
0111100101
0101100100
1011100101
1001101101
1000011100
0110000100
0000001101
0011110000
0001100010
0011111100
0011011100
1010110110
1100111010
1001100001
